#include "Image.hpp"

namespace libsegments {
  namespace utils {
    namespace image {
      const double cubicKernel1[256] = { 1.0, 0.999965473309662, 0.999862194781796, 0.999690616731121, 0.99945119147236, 0.999144371320231, 0.998770608589457, 0.998330355594756, 0.997824064650851, 0.997252188072461, 0.996615178174307, 0.99591348727111, 0.99514756767759, 0.994317871708468, 0.993424851678465, 0.9924689599023, 0.991450648694695, 0.99037037037037, 0.989228577244046, 0.988025721630444, 0.986762255844283, 0.985438632200285, 0.98405530301317, 0.982612720597658, 0.981111337268471, 0.979551605340329, 0.977933977127952, 0.976258904946061, 0.974526841109377, 0.97273823793262, 0.970893547730511, 0.96899322281777, 0.967037715509118, 0.965027478119275, 0.962962962962963, 0.960844622354901, 0.958672908609811, 0.956448274042412, 0.954171170967426, 0.951842051699573, 0.949461368553573, 0.947029573844147, 0.944547119886017, 0.942014458993901, 0.939432043482522, 0.936800325666599, 0.934119757860853, 0.931390792380005, 0.928613881538775, 0.925789477651883, 0.922918033034052, 0.92, 0.917035830864449, 0.914025977942119, 0.910970893547731, 0.907871029996005, 0.904726839601661, 0.901538774679422, 0.898307287544006, 0.895032830510136, 0.89171585589253, 0.88835681600591, 0.884956163164997, 0.88151434968451, 0.878031827879172, 0.874509050063701, 0.870946468552819, 0.867344535661246, 0.863703703703704, 0.860024424994911, 0.85630715184959, 0.852552336582461, 0.848760431508243, 0.844931888941659, 0.841067161197428, 0.837166700590271, 0.833230959434908, 0.829260390046061, 0.825255444738449, 0.821216575826794, 0.817144235625815, 0.813038876450234, 0.808900950614771, 0.804730910434147, 0.800529208223082, 0.796296296296296, 0.792032626968511, 0.787738652554447, 0.783414825368825, 0.779061597726365, 0.774679421941787, 0.770268750329813, 0.765830035205162, 0.761363728882557, 0.756870283676716, 0.75235015190236, 0.747803785874211, 0.743231637906989, 0.738634160315414, 0.734011805414207, 0.729365025518089, 0.72469427294178, 0.72, 0.715282659007471, 0.710542702278912, 0.705780582129045, 0.70099675087259, 0.696191660824268, 0.691365764298799, 0.686519513610904, 0.681653361075303, 0.676767759006717, 0.671863159719866, 0.666940015529472, 0.661998778750254, 0.657039901696934, 0.652063836684232, 0.647071036026867, 0.642061952039563, 0.637037037037037, 0.631996743334012, 0.626941523245207, 0.621871829085344, 0.616788113169143, 0.611690827811324, 0.606580425326609, 0.601457358029717, 0.59632207823537, 0.591175038258287, 0.58601669041319, 0.580847487014798, 0.575667880377834, 0.570478322817016, 0.565279266647066, 0.560071164182705, 0.554854467738652, 0.54962962962963, 0.544397102170357, 0.539157337675555, 0.533910788459944, 0.528657906838245, 0.523399145125178, 0.518134955635464, 0.512865790683824, 0.507592102584979, 0.502314343653647, 0.497032966204552, 0.491748422552412, 0.486461165011949, 0.481171645897882, 0.475880317524934, 0.470587632207824, 0.465294042261272, 0.46, 0.454705957738728, 0.449412367792177, 0.444119682475066, 0.438828354102118, 0.433538834988051, 0.428251577447588, 0.422967033795448, 0.417685656346352, 0.412407897415021, 0.407134209316175, 0.401865044364535, 0.396600854874822, 0.391342093161755, 0.386089211540056, 0.380842662324445, 0.375602897829643, 0.37037037037037, 0.365145532261347, 0.359928835817295, 0.354720733352934, 0.349521677182984, 0.344332119622166, 0.339152512985202, 0.333983309586811, 0.328824961741713, 0.323677921764631, 0.318542641970283, 0.313419574673391, 0.308309172188675, 0.303211886830857, 0.298128170914656, 0.293058476754793, 0.288003256665988, 0.282962962962963, 0.277938047960437, 0.272928963973132, 0.267936163315768, 0.262960098303066, 0.258001221249746, 0.253059984470528, 0.248136840280134, 0.243232240993283, 0.238346638924697, 0.233480486389096, 0.228634235701201, 0.223808339175732, 0.21900324912741, 0.214219417870955, 0.209457297721088, 0.204717340992529, 0.2, 0.19530572705822, 0.190634974481911, 0.185988194585793, 0.181365839684586, 0.176768362093011, 0.172196214125789, 0.16764984809764, 0.163129716323284, 0.158636271117443, 0.154169964794838, 0.149731249670187, 0.145320578058213, 0.140938402273635, 0.136585174631175, 0.132261347445553, 0.127967373031489, 0.123703703703704, 0.119470791776919, 0.115269089565853, 0.111099049385229, 0.106961123549766, 0.102855764374185, 0.0987834241732065, 0.094744555261551, 0.0907396099539393, 0.0867690405650918, 0.0828332994097293, 0.0789328388025722, 0.075068111058341, 0.0712395684917565, 0.0674476634175393, 0.0636928481504098, 0.0599755750050887, 0.0562962962962963, 0.0526554643387537, 0.0490535314471811, 0.045490949936299, 0.0419681721208285, 0.0384856503154897, 0.0350438368350029, 0.0316431839940897, 0.0282841441074699, 0.0249671694898643, 0.0216927124559936, 0.0184612253205779, 0.0152731603983384, 0.0121289700039954, 0.0090291064522694, 0.00597402205788122, 0.00296416913555109  };

      const double cubicKernel2[256] = { 0.0, -0.00291815365131054, -0.0057904425899542, -0.00861713820476284, -0.0113985118845692, -0.014134835018206, -0.0168263789945042, -0.019473415202298, -0.0220762150304181, -0.0246350498676979, -0.0271501911029697, -0.0296219101250652, -0.0320504783228168, -0.0344361670850573, -0.0367792478006193, -0.0390799918583347, -0.0413386706470362, -0.0435555555555553, -0.0457309179727252, -0.0478650292873777, -0.0499581608883459, -0.0520105841644614, -0.0540225705045567, -0.0559943912974643, -0.0579263179320169, -0.0598186217970462, -0.0616715742813856, -0.0634854467738655, -0.0652605106633199, -0.0669970373385804, -0.0686952981884796, -0.0703555646018503, -0.0719781079675239, -0.0735631996743336, -0.0751111111111111, -0.0766221136666894, -0.0780964787299006, -0.0795344776895761, -0.0809363819345501, -0.0823024628536539, -0.0836329918357195, -0.0849282402695795, -0.0861884795440671, -0.0874139810480132, -0.0886050161702512, -0.0897618562996136, -0.0908847728249311, -0.0919740371350386, -0.0930299206187666, -0.0940526946649478, -0.095042630662415, -0.0960000000000001, -0.0969250740665353, -0.0978181242508533, -0.098679421941787, -0.0995092385281686, -0.100307845398829, -0.101075513942602, -0.101812515548318, -0.102519121604813, -0.103195603500916, -0.103842232625461, -0.10445928036728, -0.105047018115205, -0.105605717258069, -0.106135649184703, -0.10663708528394, -0.107110296944614, -0.107555555555556, -0.107973132505598, -0.108363299183572, -0.108726326978312, -0.109062487278649, -0.109372051473416, -0.109655290951444, -0.109912477101567, -0.110143881312618, -0.110349774973427, -0.110530429472827, -0.110686116199652, -0.110817106542733, -0.110923671890902, -0.111006083632992, -0.111064613157835, -0.111099531854264, -0.111111111111111, -0.111099622317208, -0.111065336861388, -0.111008526132483, -0.110929461519325, -0.110828414410747, -0.110705656195581, -0.110561458262659, -0.110396092000814, -0.110209828798878, -0.110002940045684, -0.109775697130063, -0.109528371440848, -0.109261234366873, -0.108974557296967, -0.108668611619965, -0.108343668724698, -0.108, -0.107637876834701, -0.107257570617636, -0.106859352737635, -0.106443494583531, -0.106010267544157, -0.105559943008345, -0.105092792364927, -0.104609087002736, -0.104109098310604, -0.103593097677363, -0.103061356491847, -0.102514146142886, -0.101951738019313, -0.101374403509962, -0.100782414003663, -0.10017604088925, -0.0995555555555558, -0.0989212293914101, -0.0982733337856478, -0.0976121401271004, -0.0969379198045996, -0.0962509442069792, -0.0955514847230701, -0.0948398127417058, -0.0941161996517179, -0.0933809168419391, -0.0926342357012011, -0.0918764276183368, -0.0911077639821785, -0.0903285161815588, -0.0895389556053106, -0.0887393536422638, -0.0879299816812535, -0.0871111111111111, -0.0862830133206685, -0.0854459596987582, -0.0846002216342132, -0.0837460705158657, -0.0828837777325475, -0.0820136146730905, -0.081135852726328, -0.0802507632810916, -0.0793586177262138, -0.0784596874505286, -0.0775542438428669, -0.0766425582920598, -0.0757249021869422, -0.0748015469163446, -0.0738727638691001, -0.0729388244340421, -0.0720000000000001, -0.0710565619558094, -0.0701087816903008, -0.0691569305923072, -0.0682012800506602, -0.0672421014541924, -0.0662796661917362, -0.0653142456521252, -0.0643461112241894, -0.0633755342967635, -0.0624027862586787, -0.0614281384987674, -0.0604518624058632, -0.0594742293687953, -0.0584955107763978, -0.0575159780175047, -0.0565359024809466, -0.0555555555555562, -0.0545752086301654, -0.053595133093606, -0.0526156003347129, -0.0516368817423158, -0.0506592487052493, -0.0496829726123442, -0.0487083248524329, -0.0477355768143477, -0.0467649998869213, -0.0457968654589864, -0.0448314449193741, -0.0438690096569192, -0.0429098310604505, -0.041954180518804, -0.0410023294208099, -0.0400545491553022, -0.0391111111111107, -0.0381722866770686, -0.0372383472420101, -0.0363095641947666, -0.0353862089241694, -0.0344685528190514, -0.0335568672682447, -0.0326514236605822, -0.0317524933848969, -0.0308603478300191, -0.0299752583847837, -0.0290974964380211, -0.0282273333785645, -0.0273650405952455, -0.0265108894768966, -0.0256651514123525, -0.0248280977904414, -0.0239999999999996, -0.0231811294298572, -0.0223717574688465, -0.0215721555058006, -0.0207825949295528, -0.0200033471289323, -0.0192346834927748, -0.0184768754099096, -0.0177301942691726, -0.0169949114593937, -0.0162712983694053, -0.0155596263880402, -0.0148601669041324, -0.0141731913065106, -0.0134989709840108, -0.0128377773254633, -0.0121898817197006, -0.0115555555555553, -0.0109350702218598, -0.0103286971074463, -0.00973670760114853, -0.00915937309179737, -0.00859696496822515, -0.0080497546192646, -0.00751801343374758, -0.00700201280050639, -0.00650202410837375, -0.0060183187461833, -0.00555116810276646, -0.00510084356695284, -0.00466761652757919, -0.00425175837347513, -0.00385354049347608, -0.00347323427640944, -0.00311111111111195, -0.00276744238641369, -0.00244249949114561, -0.00213655381414402, -0.00184987674423853, -0.00158273967026368, -0.00133541398104864, -0.00110817106542704, -0.000901282312233409, -0.00071501911029781, -0.00054965284845121, -0.000405454915531234, -0.000282696700364404, -0.000181649591785682, -0.000102584978628695, -4.57742497226299e-05, -1.14887939028918e-05  };
      
      int channelDepthSize(int depth)
      {
        switch (depth)
        {
          case CV_8U: case CV_8S: return 1;
          case CV_16U: case CV_16S: return 2;
          case CV_32S: case CV_32F: return 4;
          case CV_64F: return 8;
          default: return 0;
        }
      }
      void copy( const cv::Mat& _src, cv::Mat& _dst, int _x_src, int _y_src, int _x_dst, int _y_dst, int _width, int _height )
      {
        if( _height == -1 )
          {
            int self_height = _src.rows - _y_src;
            int dst_height = _dst.rows - _y_dst;
            _height = self_height < dst_height ? self_height : dst_height;
          }
        if( _width == -1 )
          {
            int self_width = _src.cols - _x_src;
            int dst_width = _dst.cols - _x_dst;
            _width = self_width < dst_width ? self_width : dst_width;
          }
        
        int pix_size = channelDepthSize(_src.depth())*_src.channels();
        for( int i = 0; i < _height; ++i)
          {
            memcpy( _dst.ptr( i + _y_dst ) + _x_dst * pix_size,
              _src.ptr( i + _y_src) + _x_src * pix_size,
              _width * pix_size );
          }
      }
    }
  }
}